1111111111111111111111111111111011111100111111110001010011110001111110110000001011111001111110110000010111111110111111110000100000000000000000000000001000001001111111111111101100000010111111101111111011111111000000001111110100000000011111110000000000000000
0000000011111111111111111111101111111010000000001110111111111100111111011111110100000000111101110000011111111100000000000000100011111101111100010000000100000001111111111111101111111111000000010000100011111111000000000000110111111111100000001111111111111111
1111111100000000111111110000011011010001000000001011001010000000111011111111110111101000111101110000000111111101000101010010101011111110111111110001010000001011000000001110011111101010000001011111110000000000000000000001111111111111001110100000000000000000
0000000000000000111111111111101100000001000000000010100011111111111101111111101011111111111001100001110011111011000000000001001000000110111111001111100100001101000000001111101011110011000000011111101011111111111111111111111100000000011111110000000011111111
1111110000011000111110110000011011111110000001000000011011110101000010001111110111111101111000000000001000000100000000000000000101111111111111010000000100011010000000000000001100000000000000000000001111111111111101101111110111111100111101001111111011111110
0001111011101000000010011111101011111101110010000010100111111000111101000000011000110000001110110001011011011110001101001101111010000000110001111011101111111101111101100100000100110111111000100100101101011101111010000001110111011101111000010000110100101010
1111111000011010000001000000011011010011111101100010110011111110111101010000001101010100111000000001011100010101111110111000000001010111111101011110011100001001111011001110100011111001111111010001000000010001000010100000000100001001111111100000000011101000
0001100000001111111011100000110011110011101001100000110111111100111011000000110000001111000001111111100000000010000000010000010101111111000100110011111000010000000010101111010101010011111000110001111011000000111000110000011011111011000000111111111011110000
1101110111100100110011010000100000001110101110001010111000101001000001000001101000000000000011100000111000101011110110100010100110111011101110010001001111000111001001000000110100100000111010011110011000100010111010010000110100101011001100000010111010000000
1111011000000011111100011001111000001011111010111000000000010100000011100001100100011010000001110000011011111010000011001111011100011101111100010010101011110101110111111110111100010011111011000100010100000111111111011111110000100101111110010000110100100001
0010001111111100110100001111010011011011110110100001010111011101111110100000100000001011000100001111011011110001111010010010100011100100000010111101110001010000111100101000000011000010000000110001101100000010111011011110011100000010000000011111111100110100
1110011011110001110110100001010111111100111111000000001111010011111100101111001010111000110100001110001111110101111111000011011000001000000010111111101110100011110011000010111000001001000101110010010000010101111010101110111011110100101010101000000000110000
0001000100011000110111111111111011110111101110110000111011100011000010110000110101000110111000111100111011011101111111001110111010000000111011100010001011101011001101111110011100011010111111111110110000011011111011110000110011101001111111101100001000000000
1111000110011110000111011011001000111010110111000010101100010010011100010010111110110010101011100000001111101000011001010000100011101101111010011100110000000101100000000000000111100111101011011100011100100111000000100111010011111100001100101100100001000011
1111101000001100110111111111111111111000000001001110110011111111111100111111110100010111100000000000001111100100111010011111011000010011000010100001001011111100001100111111011011110011000101101111010100000111111101010000101100000000111100100000110111110001
0000001000111010110110010100010011011111000110001101011011100101111110000010100101111111000011001111011110111011110101011111011000000011000010110001110011111111111101111110011001001101111010001111010111111000111101011110001111111100111000101110010111101100
