memory_initialization_radix=16;
memory_initialization_vector=
5ae6074f29ff02f7fafe020628fafb0e,
66d00efe19fafeee0700000102fffcfb,
31e7081919fffff5f7fd0105faf90513,
1cdaf92a2bffe1f12101f5f6470e80ba,
cb802a5772fdf58b7ffdf50011f8dd63,
69c1124bfafc00010ffffe02d9fefd16,
3de1f92ce7fb000dd8fe01060ffafc1b,
a0c1202780fa074b9002074d1404fdea,
1bd60a05f6ff0104e6fa030ef701fc17,
f707fa00fd05f404ee37dffef2340007,
0a7f1ffbf5221cf3ea0c14f500ee05ee,
fd1b03fbfe1c07fa04fc20fe0927fcfc,
0405060c0906f1fca32a9e03c01fbe00,
2621f845d9c6801e8008530977147ed7,
0900e916f810ebf5cd024ef921d48028,
0cfb0005060212d80210e1e0ff0ce1e6,
0119f8031a01289708fc02ec12081f00,
01f5f60405031dccfa021c060ee1faf7,
f2ef14e20a0bde1df10118ddfbfbfa12,
faf30507f825d29302f6fa4bfcfd09e3,
f900fbff0fe21a00f3e6230ff3020112,
f5f823fd2efc805603e88c54ffeae832,
09e0dc7f601ba2ff803dcca4dfdef5b7,
ea0f0bf50840cde1dbfcca07dcf506ff,
f8050afb15420cace0feeb20f4f00bf1,
f207f419563cb1eea44f349f2080e933,
fdf800072707f7fbf50013faf8d9080e,
d30a02f32915f4f24ff7ef1511f0fc02,
fd080bf80c03d12c3a03de2714e8031b,
f00301ff7fe9d90acf1df8f02be80114,
141115e6e61e16db4af2e90e09eefe09,
7f132ad0d1e31373fee6bbb580e2c9d4,
09020afa55dcd80bf11d25081ed0e80d,
bd0606fd942213e1b101fb041df908ff,
f50413f395172bf2db2324e2d1f2fd01,
e3030404f103020d802912e72aeaff0a;