memory_initialization_radix=16;
memory_initialization_vector=
80ede840,
d48051ff,
80cbd73a,
8029f902,
80951e15,
800b21b1,
03f0017f,
7fc12baf,
0d808236,
59da0b80,
80276e51,
bf36800f,
7f95b4fd,
e0fe147f,
f4e50680,
80ac450e,
e17f78c8,
f4806a16,
a7576180,
805c5b0f,
7fff3917,
0e80953c,
80ef1f17,
b97f8cd8,
e27f9ee6,
803ffbd8,
6a43087f,
80ddbf1d,
ae7f92da,
8040f009,
8000fdfa,
8010f3fe,
08385a80,
17094780,
9f727fe9,
b380e8d5,
d598d67f,
2acc80a0,
cc0ffb7f,
f7237fd3,
e8f7bc7f,
ba237f7d,
80e3eb23,
4fd28580,
7f270ce3,
ef800dde,
082c7feb,
eb7f45b2,
e6ba007f,
5064c080,
3f907f09,
20fc80bd,
3080c01c,
2b7f0740,
d827803c,
e3ee7f86,
8036ec1a,
bf7ffb29,
e61b80dd,
438032e1,
0820937f,
a37f073c,
487f8fad,
f380e9b7,
b38096c7,
7f422a3c,
b88780e9,
8180c733,
f29c7fa3,
7f1fe263,
8b127f66,
362af080,
8058fe5f,
a75380ca,
26f27fff,
80201d20,
043f0c7f,
b0801cd6,
d4d57f7f,
7f31dae3,
2aed809d,
ed137f6a,
0dd3fd80,
44344e80,
4b3e80af,
857f3317,
f25ffd7f,
80242918,
62187f3c,
d7fbd47f,
094580f8,
2adf0e7f,
30564b80,
117f14ff,
7f05b997,
56ff7ff4,
7fb20b20,
7f08fc03,
ec848084,
3580e5e8,
8095e8d3,
7f70d5c4,
7ffd03c8,
525d7f3c,
7f630406,
fea2577f,
7f9b3ba6,
7fd7f2c8,
071fb280,
09ace77f,
555a8d7f,
3c1fe67f,
46fe8012,
031efd80,
c146a580,
2dee800c,
c5f3f67f,
00805e36,
7f83fe5f,
09427f55,
7fd7d416,
77c1f680,
757f1929,
7ff8ca25,
b7170780,
e68092af,
017f0641,
fa7fac92;