memory_initialization_radix=16;
memory_initialization_vector=
000000000000000808F60F7F1C1104F2000000000000008FD3CD4EC580ED3E4B00000000000000B5711695F472C1B68000000000000000EC0315007F3615250100000000000000DE80BB50A834DBDF5C00000000000000F60DFC17B67FF11FF600000000000000FB0002FB7F01FFFCFE0000000000000009F104E87FEB07F50C00000000000000D52264CA90A3B0809900000000000000FC10F90E80110007FD000000000000000703F6FE7F0A0503FA00000000000000FC08010E80060805090000000000000002F800DC7F32FEF6FC0000000000000013231980B72401CE30000000000000003F6D3BC180E6F8E9EA00000000000000FBDFFAE580E9F8F1E9,
00000000000000D548B7550F318D968000000000000000FA02FC027F03FA00FC00000000000000F13920C67F2AEB3921000000000000000102FD04800602FD0200000000000000F5FEFE0080F0FCF4FC00000000000000B84E801E93040649190000000000000005F303057F08050000000000000000001E1D0B3F7F4C29010A0000000000000009E60ADDB17F0CE10C00000000000000254F000680FC04FF0500000000000000C63DEF7F3521B457C400000000000000CE29042C81DD0A7F020000000000000007FBFEFA7FFC06FAFF00000000000000E68A51D980690F93A1000000000000003A89FE0EC7FE8004D400000000000000536F692D8014546355,
0000FFFF00E780FF005CFD53FC0012691B5DFECC7FD083E40E9FDB48C7597F8203FFFC03FFB53614000EFF11F8000EFA3700F723FFC3747F00F419FF3600D5FB3EAF73808D99B5A0471E55C99807E53A90F2B06C678802A1768A3761C64CBA7FF8000403FF4219D3FF240022FFFFFB18FFFF02FFFF23C500FF7FFF69FF000246E5FF01FAFF6AE3E70020F9160200040AFE000300007FBF0F003FFE31010025EFFABCDCA128FEF49512BBF384CC4884C603FF0400FF806ACFFFC300D30C0000E03500FC2800E67F77FFF518FF34FFF400F2000BF4000CEB23FF7E0178F7FF12540A3180BC78A6FEBC918597DBFEFE3AF40E00EE0D00EE7F1A0033063914FFEE19,
01FFFF5C5FFFFF011D2400FBFA000003631EA51736EB342FC4ED4FBF6CDF520BEEFFFE04110003F2A07FE7ED01FF00F5F00001FE01FF5E25FED7F5C471FF00FA69A78615E31C6FC8D22C8334B22973E92E1E37EE976390C98DC21F46FA4D3F0F3601020A2800FB16CC3C537FFFFFFF2C05FF006B5E00FFFC126EFB35FFFFFFFF0EFF002415FFF3FB7F030B03E9FFFF0108FF00130BFF00F04C66FE51FF00FF19166ADC41809FEFD2CF393150F026664DFEFF00DCF100F9EE84F5FD2104FF00F80D0306FFFF006015FAEA0FEB60FFFF040E00FA7F7900E8F80938102107FF00009C350C17A5798F6693B5F988A0493CB5F2010237260008EDFF07F2F51A0000F5,
F4C91897A9ACE62488BA1D0E4FF84CB0F2FFFB00FFFF1DF004F2FFFDFEEC00FAF000F7090000FFF7FC080007110600FBFBFFECEAFF000EFB37F0FFFAF81900DB05FF2D3700FF1CF0E55F00EA1FE8FF1B0FFFEC1C0000D812E32300F61424FFD81300E0FAFF00071A00ECFFFEF321FFDC0F00FFF8FF00E427E02A00EDF15B00DAF7000224FF00D2DCFB1EFF011FE4FF2EFE0016E1FF00F100F806FF07DE1200E5FA00FF00FF00FCFEFFFF00FBF80300F7F3FF0BC9FF0020EBF31FFF08F8E4000709FFF60A00FFFC13F5180004020600F913FF01F900004D1A000000FB0AF6FFDA0200FD0DFF00FCFB0204FFF9080100FA04FFF1FA00FFE914F207FFFFF707FFF9,
D9B0B70C4C545CBBAE0542E790E2B2C6D800F1DF00000CDA00FBFF09EF82FF57F1FFF50C0000E1ED0404FFFF22FAFFFEF700E2DB00FF010400DD0001E924FFC110007825FF00F6172A4C00EF14CCFF5B0AFFF1EDFF0026212016FFF8E858FFC32BFFE9EF0000F83EF4FCFF00FD7FFF9900001835FF00F7E095F6FFFE019900480200F206FFFF0D10F90C00FE1907FF14FDFFE9E00000C8FCF104FF01D70600A70300FDF9000005FD0302FF03FB05FFF6FEFFF7EE00000AFCFDE2000006F700031B00EC04FFFFFC1B0028000103FE00FB0EFFE3EDFFFFF9DCCAD200FDF644FFD40200F7FCFFFFF3F909EE00FBFE0DFFF003FF08F5FF000011F9030000EF03FFFD,
3ACA1DAFBD52B6EF93243933CEF8E15EF300E9F2FF0028E5FAC6FFFE06F6FFFC0000FCFCFF000B0A0106FF07F6F60006FDFFEA07FFFF26FDE0D60003FA2CFF02F300263800FF29EA08DCFFE0160000D40BFF100CFF003E03952AFF01F9BFFF1400FF07340000E8E5C6E2FFFB1410000907FFEB01FFFF02FE10EA00F2FFF3001F04FFE5E4FF00D91811FEFFFCF90CFFF6F9003F0AFFFFD1F90D0D000602FA00EAFCFF03FCFFFFFA040001FF03FDFC0000FFFFD7FB000000F6F20500011C060006F6FF1025FF0006F80010FFF914FB00F9F7FFBFF100FF1BCEE1C0FF07FA25FF1405FFFAF90000160103F500010AEDFF0C01FF01F20000FC0606FD0000F5FEFFFD,
560EB2D3C4E9C3E437BCC7DB2B3238320EFF10030000F00CFF0100010C11FFF5E700010AFFFFF2EEEF1B001435EF00070100050900FFD101CD0CFFFFFD44FFCC12FF1F1B00FF5524CE3B0008F40FFF18F900FE0800FFE006F7EDFFFE10B0003AFCFF0AEEFF00F0EE1B0700FFE4C3001305001E08FF00E3F9E911FFFCF1A7FF34EFFF19FBFF00E1EAE020FF02EA1FFFA2FC00EECB00FF01FBF8140003DFF20013FE0002F900000100FD05FFF600FF00F5E900044800FF05DC121B00045E87007F1E00E3FA00FFFA3FFF1A0006F5F3FF1D01FF4904FFFF1BFF56EEFFF3DE8CFF7F0100090200FFEDFBF7FB00FFF709FFEDFEFFF0EA00000BFAEF07FF01F9FD00EB,
060207B50756325F19680FB996BDF4D24200F4FFFFFF213008F600050B7FFFCF4FFFFB49FFFFE623F91800FD7F7900DCFEFF100E0000F31F950E000116EB002F0D005324FF00181C74310002FEACFF56E800F2DC00FFF5B8449C00FAD9F000DB12FF2A02FFFFBA0E37CE0000FFD8FF16030016F200FF04F07F9900F1B50EFFEBFB003B1AFF00FAE180FAFF0BEE92005900FFF127FF000BF7EB14FFFA0CF0003C14FFF818FF001A19FB1C00FE4FCAFF7FF7FFCBEB0000FBFB7AD800F9D809FFEA3BFFF8E1FFFF0E71ED7F0002FD6200B01D000ADAFFFFCC227DD300FAF9E1FFCB0400E304FFFF090D02EB00FEF23FFFDBFFFF06ECFFFF0902070900FEE8F6FFED,
20E607ACD5B94776A1EEC4BC91EA2E210400FF06FFFFFB1AB2DB00FF1E08FFFFF300FB04FF00EBFFFA1B00FE00E6FF16FC00EAD5FFFF0608CE380000E3F0FFF1F7FF114BFFFF20F261CAFFF522C3001A08FFAFFDFFFF1F247F04FFF8F97100B908FF181FFFFFF4F611D100FA2B08FFF313FFF5DE00FFEC0E67EE00F8F953FFAB0800D5EF00005515FD1A00FFFE070000FE00233400001EF80F16FF047FC7FF54FC00F6FB0000F7000409000803FFFFFE06FFF71700FFD70703F6FFFB0B00000F07000A2000000EFF080200F107E4FF1AF5FF93D500FFC8F5DFCCFFFBFA0AFFC8F7FF1E08FFFF110880FB000AFBCC00500000F9F0FF0004FE00FFFF00EFFBFFFE,
B218980FD641DAB3DBCEA203DA67A83908FFFCF900FFFC04FC0DFF0300FAFFF9F50002FEFF0014FB03F300F8000100ED07FF10F30000EC07E92100FF08F500FC0100A28DFFFFF3F40310FF18DB11FF880300E1B80000F221D6340005F814FF1FF9001A0400FF1AF2FC0500FFDCD9FF2908FFEEFDFF001DF6FB2E000BFBE6FF0903FFF4F300002A2216F300F3F348FFC8FBFFF5F400FF0BFAF510FF02F8F600EEFE000002FFFFFFFEFDFCFF000403FFF40AFFE726FF000803F52000F9181D00D60E00F712FFFF0D0AF11A00FC06F700021DFF2429FFFF35390A1C00FF0DEA001E00FFFDFD00FF00FF0402FFF801F5FF00FF0000670000F8FEE0FF00017F03FF41,
AF0C1CDFB146C1D0D4C20FE930CEFAF319FF061400FFCD0014EB00010C18FFE5E300FBF000FF1CF3070A00F6F9DD0008FCFF22F800FF10E418E5FF00FD80006B0A0080A7FF00AF1B92E60002E65A0080F800EB0D0000A6DBC600000B1C91FF6AF6000DE8FF0030F308F000FFEEC5002F18FFEF0CFFFF181634C000F9FE5C00B001FFF8FA00FFFC0AF406FFFDF91000F00400F318FFFF10060A03FFFC0516FFF9FFFFFEF900FF0CFA0102FF05030FFFE61600D4FAFF0003290D1300F6E36200B10BFF0EFB0000F905F91800FBF204FFF11200FAF6FFFFE7F8EEEBFFFBF41DFFD7020004FEFFFFE40803F000F80404FFF9FEFFF9FA000008FA18EAFFFA01F0FFF7,
1D41AEC808FB263D37AA576816C42F80FDFF11FDFFFF02F501EF000311FFFF03F50004FA00FF1207F316FF05FD05FFF40800F7E20000F41B35FBFF00EBF70013E600D3EBFFFFE6E6ADC1FFFCF06300ED0600D90DFF00CD06F108FFFD16FDFF2A04FF0AFDFFFF2DFC18D6FFFC17FC00F7F7002726FF000ACF9F28000423BB0031F500E0F5000018E1F30B00F704EEFF04F7FF061F00FF18F50BF5FFF82B14FFFDFE0002FEFFFF0600FB06000404FCFF0017FF050B0000EB0C08F500F50804FFF5F5FF0B100000030F190000FB02E7FF07EF00E2FC0000F9C2E9040006F51E0012020008F8FF0017010DE7FF0006FF00FCFF00F4FE0000F7F7F70000FFF803FFFF,
FFE118FC060307060EF0FC07F6F316040003F1010505FBFFF91BEE06FA0703FD00FC1D010602FE06FE01FDF7E302F61B0000FE0900FE01FEF00503FAEF10FAF9000A00FAFC05020D090CF9FC15F0FED8FF01DA0902C70EEFD9020A111403DAE5FFFEF8F214FBF70100E50D08DC0109F400FC01FA05FBFF03070506000901050BFF1FE60BAB1EFA2A1EF516193590180B0013000919FB02FFDA0B05DCFA12EF1DFF27F8E5CC58D6E100D70CE727011941FF04FD0C16EBF4FA06F501F1F80F0801FFFEFD0C23F7F4FBE50011E5CD36EA02FFF61AE1DB2210F91C15F2122AD2E42100F7EFF90BE52512E621EA13160617F900EB110F17F1050F0016FBF7F80F0CF8,
0000BCE6FFF8F3EE0AEF7F01D9150AFA00F130150103FD05001380EA0FFEF8F0FFFCB515E0F40FDEE7C70CE710FDE5E4FF01F9130EF1F7FD0306F3F8FB18F0DF0003E00BF60F08FC08F81C0807FDEF00FF08EA00DAC0E537DC27EA1E210BAD36001680F31021F9FF14EE64FEF60610FCFFFB17F90502F7040B07E900FB000A0000031D0485030F22F61502D629AD13B7FFF8F3041C01F4FAEAFAFAF6FF1EF9F300F01387EC4D45D8E9D5651AECD2BFD200F1E7EBFD1D07F610FD0F0507090C140012E7142408D304092301CC0B31F8E5FF3A16EBFCEA02D918FBD1CF1E12CEE0000223482609E937121DAE0C29192DF400072A1B13E5EC0A152CE8F7E717F6D8,
00F7EF151DF905F60EF60B1CFA090BD300FEFDEC000602051509DDF0FC03FAFBFF1604E819F409EACCFA1E03F212FF430017F1180B02EEF2F10E0AFE0C0BFBFFFF0000FAF6F5051510FCF9E51FFEEDD900F06E2A08BF073A3706BDFA010DFCF00001DAF70E0A0CF7FCFA31F7F3F90DE700FA0B00FEFDF80A0700F8070AF9FF08FFE2E3EEA436E900D206E8B93C04082CFF04EF0C20FC01FDF7FB0CEFEB1B05D7FFF926CBD8133CDDF3E4F51CC0DBFABBFF0A0BEBE20204F904FFF8010BFD011FFFF5EBF82717EE0F181302C9E71F03D80000330E9330F8F111ED2F03EED5E959FFE11D23520D2402B4FED9EBF8FE13C5FFF0F8231C0BE0020F04E606E606FB05,
FF01F1FD05E8EDF107E1E80802030F08FFFB0F04F8FB030E01FC17F4F509F2080005F4FD0CEBFFEBECF81DF8F60808F6FF030A050309F900FDFD0EFFFA08EFF6FF0DDC0BFCEC00FE110D01F708EDE1E4FF111634F8DBE500E0FCF9F5D5300A0400FE06001000F3080908E2FFFC04FA02FFFC04FA0205FB05090BF30208000704002E17F606FBFE301927C1F72888CED500187F030A1AFAE70918DEEB1F12171BFF454EE8D03413F85D14BEFA0AF37EFEFFF3F90014F809F6FF0DF1041807EAFDFF0122020FFE0CF4F101FBF205118001004BAEEC2B240CF22A31030BCB0DD400FF08D728EB03EE4510C906060407D200FF25DF06F6DB2109E3F41FFB140F11CD,
FF5147EC000631F317DAA81128010A0EFFDAD600F3F00C0B16E857FCEF0801F8FF052E38F3DB11DBEEFB7FF2F8EDB91200DED1180EEBFEF8F3DF23E2F31980F2FF3C1D18F8E01CC80234BC05EA00F6F8FF7F12FB0CBF973EFEF2F2011A075C18005439E00A12B2F00E25A1EA2D19E90D0015D2F60505060E05077F08EB00060300E046FF0DCA08D2F5146BD585C2C7AD00F4C00C0401DEE202F408D409F0E714FFF3B9DE07DDF9381222EB03D1155E0600016518EB1D0202F9FA97E9291217EB00000C2D03E6CBDCD20602CA511BB3F1FF46E2E42602F5A7231E40B6C2FDE6E100BA7F241FAD10F8DD21DCD17C38FAF90002BB2FE7D6F509EFBD711900E3FFE2,
FFF8E8EBFD0F1602F9F3F7090DE703020003F90FF70AEEF80F0319FF080E09F3FF0403E4110A1CCFD30129E3D3FD0CCDFF2171F101E41505DA11F103210ADEEEFFE21120F405FBF4D9FE7FBBC3E8D8D700AE911C17AF3F0195E228F21DFF222DFFF9FD190911E7F3E11BE1F10E08F8150001FC0005FFFA0FFC07F50D02FEFC0500F83CE2B52CCEE8F8DB5DE180E9C1D3FF00E20414F20FF4EA051DFEF02114F500DAD8FDE2421FE10EDE34C50C2315FA000CF006110EE7042504FFE518EBF9220004E00F22F108F2E6091AAEFF0A12EBFFE238BCCC2EF6BAF8E6C914F9B5CF7F00DE0FFFF91DE71EE0F1EEF9270C0F9B00FEEF05AFFB10D3A3EA343D2AF708D0,
00F20501FCFD00FC08ECFAFF05FA0AF70001F4FBF805FE00FEF1080203FDF40200FA0106F2F309FDF9FF0E000A00F60400FE08F9010700FC01FDFA05F4FFFE0AFFF7040404150BF5FE10F70C03F9E6EE0008171DF4F20717D926F7ECE300FBE900F2FEFF04F7F2F90202FEFEF50B0706FFFBFF020104FA0904FC05FDFE040303FFF8FF18E92D002618FDF3163DA80ED300020DF9FDE902010B15FBF50605F90100A5E5E80BFE3ACF02E1050F25D980D300F1030804DE1BE3EC0315FDE808E5FF00D624F411E5FCF00B05FAF5ED1F010CFFFF97CFF9271A0B353D2D3CF6E69EF2FFF4242D00E1F03EC8CB2ED3B0140A18FF1EEAF1FB05170A01E9F50DECFDECF0,
FFDFFCED00EE080403F9FB1200FC0BF0FFF7F5FF070AF8FA04F010FD0AFAFE0600E8F6E106F0F2D5EFE11F1516E801FDFFF9FA0007F805F3F600F1FDFD16F1FA001D0DEDFFFD05CBFC2CF814FEEED5E10006D426FCF2E231EC03160AF1FBE3F8FFDF1AEF04ECFAFB031AEE060C02F415FFEDED0001020909FDF90C01F60504FE00EC04CDF321BEDCE8CE0F3E14ADF9BCFFF7FE00FAF6FDFC0AFFF7F60116F90BFF5B1CE3FF47F6D63BF7DDFFDFE40BDEFF80E510F2D743EF08D274E7EE2701ED00C718F20DF51CFF0D0BEFF91C13080B00E45BBFCAF875AF56C84820DF38CE0FFFA69A292ED64BCAB2EE5CDECA05FEEC007F56DF1700F5FCF8C9B3FF12E6C9F3,
00FA09FAF008FB0014FFFB0D04EC01E2FF01FBFEFB03FCFBF70006000402FD0B0007EDF7FF0207EE0104FCEB0E0BFC25FFF703F7060014FBFD1617F91915E7FD000E0E1407D4EEE21AFCECF409E2DCE4FFEA0232E8E1CA12F4D81E2FE5BBEBF700F620EEF90801FE1BEEEA0E0302081600FAFD03FA01FF050103050703FFFF03FFF7F4A4E60FDBE527CED72907FA04DB00FCFF0314FB13FC0F0C07F4F6130808FF3406D70B33EDE8D0DAEDF11509F718FF0407EFEDF142EC09FCF70EE41902F6FF04F70B1408F213EE10F6EBFF1A0918000C31CB14F927E10BC7A71018D9DFE6FF93C60EEEFA440AA5B051D4FB470CEAFF032CEB07DFD60FB3CEE1F9F0D4ED0C,
390C21B9ECFEDDA4F6042F290C19FD29FFE5F7F3ED06FFFE06FAD6CF0D0DE7EB02EC390133B1FEB610F62CFD0B03E2AC13F908F9F7F3F4E93E160306E8071EFC0E00EB0DEF06FE09E90A08EA040B02F8140CE8F40DFFF6EFF41DEFC90B020D02E7F20713F41630060309D8CEED0D0B0A290AE906EB05D6FE0204F906F3E7F6EB2B021A2E1FCDE1DD1BFDE80725CC17EBF60716DDFB0802E9EB0B10ECF70C10F7EEFBD0E20A010E37A4D3D04919D5F8F604020BFD0F0C01FCF501F90108F9F8FE0FE43DDE1F0DEDEE44FDEDEB6CD0E0CDF003F0FDEEF20AFD0E051013F50701FBFA07F407FBDBF702F9ED400BFB29EFF0EADE0E160803210C011AEDE8141103FA,
D81E07D1384D050E200BF83AD9F0E004D3F7E2DA0A2B2E4801DEB0DEF547FC0A2BF7FADE1AB6C9BDDA0F2AEDE738D19705F73ED1FBFECE912BF1D461024B15E2EAFBD908F10C00BCFAF8FAFBFEF9EA1403EB06DD26F006E3E20BD18048EEE035041A16F70FFCE8040AC726560FC80CE9D8F3D236DB221149F30A07E4A5F80AEB5C1A36EF04DCA5E60DE628202A030AE71C09F3FDE306F0DEF70549F4FCE91AF01F0FDDF5FACEEADEC0F7DFB903080E2A06180302EB08F51208FE0706EE1DF0F90723F821DFF4EA10BD4D42B40628203E01FB1A1209E107E2010F0BF505CF0B093F1B1FD0DCD8C8E4E80B3F5134E71EC3C8161652DDEB272704C82E152EF2EB30,
E0DB0BECFD4C26122DCEFF09E40CF728CBEDE3F4160D2938F7F9F7F51721EF141737BA1904F70703F90719E002E7D8E6FBEFEED914FF06DCED260403F01A23EE000AEC06F60508FEFD04FAF7F305080EFFF60B0FF714FEEBEF03D0CD380711031BFCF103F12EF0F520E3DCE2DBE9EF110D02F0F01EF1FD10CCD201FFE90EFDE82BF91007F708C9F0E628E9F91E0EED1004FDFDE8E60F0C1AFF0FFA14F7F9E8E309370122F4F9F700F7E70A0016F1EECBFD04FAF705050C06FEF70000EF0105070404E5FFDBF0F0F0A30E181207112FAA04FEF508F8F4F8EC0119F8F10D070EFB1A09280F03FAF1C70222DFDD0A3AE9291DE10EE03BC7EB1DE2E7FF130A28F605,
B0E1E4498C2E0F43EE0209F8D71FF82F1918E95B0AE2E832B22705C2E0DCDCB2FEEA20F05C8009DE39E70D220F0F0E0C03F0F5F11D27CC204007D3FB2BE9FFF802FDDF49FEF104ED110111F605F0050B1B0E0405C8D3F10BF51302E1F304F1092803F8A91102C0F6D8D6DE0808EFE5F20EE9245ABA13F7F50DFE1903BC02E6C9D6F740EDF2471401EE05E11E1734D7DED6FAB5F00BFB2E1CF13B2FF5E8E924FBF3E2D4C4E9FDDC258FDDE03428D00BCDFFFB2AF4FDFBFCF41BF1F8F31CFE0D0C2E140B9A2632BDF1FDCFE13150EC02F7F90C0CF828080CDFF6F91626F5FCFA04EDF9ED45BC051F30BEFB4BF8DE08E0F5182FFE1305DEE4E8C8DB482B17ECD4C2,
C328157AB31D21D3FADD37C6E40C19FDF0C6070B00E814CF9716252916B96DE421CD1C03F3A6D8393AFF2ED5FD581407DA98EA2318C4BE7FD9F9CCC30B25141150C1FBDFFA10F5802DCCE62639FF2D1F3AFAFAD0F9CDBF3A0C0222D71FF45E02CEF9C5D72D100725DA4AFF02CDEEF5D80140BA7FD929DF41E71EED05ACC3DE30B803E6351454434E1F18F214E1D3027F09E2A73D12DC0BE2F92CE8FE04E2CB2202F61ACC19B51000B40D13AE0DDB9FEED2BD5113E90A0E7F16D5F10325F812240A4C6225D319313DA34D1CDEAE2DCC472A66EDE50803E57F1D2217F9E206FA0BC729E157E3181D0FC1070F38C3E0CDE10E7FAAE51ECEC9F5E22E6C41FDF4EDF4,
ECFEDB150D171529F599E306D6B0F2F90633FD2FF604FDE5E61401F2F81CFC353AEE10E836CE0E01EBB258E1E1454CDCF6DD1A130D08E81EF21104F011130C1FF306E904FD0813F1F63DF5F914FB031C14ED13141011E3E2053CAFB5342F172817042037B43AE8ED321CFEE6C9DC084D24DEC1A03CD2F4D806AF2FD8CA0216C9C4EEDFE81C272220FFCFF7C0FBCEFCF712DF1BD9E2EFCB67F37FE6F801ED04DBF7210611B41527FB190EEC0EDB0CD504FB18030303FFFFF8F50F01FE08FF0100B5E29E2DE7E83ABB80A2C106F7D0D8F4FDFDF9DA17F40D0FF10607FDF51209FC0FEDFED813EAEE17F8804DFDF5F512D81C0605FAF7E1FBEE13FA2318EF231F12,
FBFF2DB2517F0AE6032EDEFF4526D5E013080FEBF280FEF32ADAF4EC2FEF1505F6FF01F8FC8CED18F0292B1905FDDD09FEFBFAF90CFFF1EC12F604FAFE1214E70DF7F7E300F8F51108FDE5E600040706FA0EFDEF01192610D80EE5FDF2FFF6F206E9EC061C0FF81434D10404FFFC0503ECEDE933DE011F0FFDF5EF08DEFD03ECBB2DC1CDBFF2410FB5231B1AF8F8E42B0EFC25DA1C0BEC11F8FDDD08FCFCFB0AE8D10E417A7FEE09BBECF41E29FA9CDFFBEF03F707F700FAFCFCF8FA050504FF0514FDFD2921C2F105E623FB47D707110FF901E5F71CFEFE11FC0302FE07FE0519F109E838B715F5FA03061018EAE2111C0F08FA02141518EACF422BFFFDC0FF,
211430AA6AF21AD3E91EAB201FF1DF20BB1DEFF720E7AE0E08FF1ACD150D5D383DC51F0BFCB3D2CD2C2E33190C00E4B842F905DDF9009F070604EF12DCFB00150BBD0AF8F7F7B3F0ECF70FE618051909E4D809030605E904F213DFF6130C17FB8025FF0CC52855F3431F0DD1CA194AE7FBCC34EC422708110700CB18E7E8D4DA2B36FE36D4384CA5A5ED0AF4BAE7E12C5E1307F6210208CD1CDACC0625CEF5FF21D3F3F865CB3D0DB713F7461CDA85852AE617F60102EAF803F601F0130D0A05F1072B2F2E0A4E00D80000203803F2D029FA01040A0D48F807FEF019F4F3EDDBA730F014FFDC2B0F2F043506F718FCFB3C45F9C728C832FB0F110C52EAD3A0CC,
E3F7F9F30DF9D2DA0705CEDA3736242EF908E9EF1208060502EEE4EE17CF10FF3DEF24D30FC0D1DBF80A1E09E220F4ABEE1ED9FCECFFE9F3091200FBF7F003F2FDEFFD01EF05F203050212F007030C07F4FDF50312FD060DE60DE9DC1604021722C3210DF82FF2E9061EFFE8DCF1061DF9E8F3E91ED40810D8D6D4DF1F282119D526FEE9F9121A2BD0B20F0E05F0FBE8DCC516F7F10BBC2BDE401FD4D9EF230AD7170D1CF80E03F5F7F3B93A4201C0DC18F202F50004020C06FE04F7FD0B0BFFF312E0BD0DE9C51EB1E6D8E71DEAE7F3E2FDF10506EB1802F9050008FDFEF5FFEE03FCEFF4DF0708040D40090D0503F8FFFDFF0DEDE3E3E2083AF0013BFDF407,
F3FCF8F5020CFD0D00E1EB0315FE0300D0FE011F030912FEE100FF1101E7F20E03FC2E2AFD39FC01E8DF13FD22D9E930F405101B0C091CEC14ECE50C07ECE4FC0400EEF70AFA00FCFA0B0D08E60300F905132AFFFC0704F7F8E624F709F001FBFD25DCF310E80E1A03001600170D11CAFEF619F5F60606EF0311EAF716FAFA08EDDAF710F9FFEDD52E34FF0FFBF41DF4E723D3ECEFD40E32E7E3ECFB120B2EE9EEB9083B0B1F10C217DDB91BFCDFF030E16AB8F5228D0EF0200F31119813BE2FF7FEF3FF00FAF908FA020506010001F6E0EEC9F6011BC903163A1E0108F0FD070D1EC4E208ECDAE709F80A01120CFB0E03F2370C0DFF090D0AFFFBF3FDED0007,
ECF20CECE8F315E93CDFEF2BE63119CD28F823271557E00DB50705F713C9BC26EBE4D3E8DAD80C3626FCD1FB02100BC71A33DCF50913300F2DCFD6F4F7EDDE0402F30602E10107F91F0C06FAF71F10EAEEE80935F60605EB0BFD210516F50DF4FA02EAEBEBED0EFBEAE6030AE70AF4D4FAF0F01024EF050D190103F80A1A0506E233F4DE00D0F60F8EEBFBFAFE250CF0F20E25F8040A3A01F6F9EB07EB0EFFF1070A06F4F82114DABD3830FD23F1DD0054A2171BEC36D2A23AE127D81BE027500DFCF7F2F901FEFDFD050F0AF5EFF4130F3E2FBD9EC24817BE263CE8312717011743F7DDC7F2CFFF320603EF03210EF1CFDB3844172E11E41402F823F4E91EF2,
0611FE0FF507FC0631EEEC0803F30ADB41E42431F43DFAF4D811F80308E7F021FF330DFE01033224E6F0FBFBF21600F2331CFD09EF1712000B02D3F40117ED0B0DFB00F707F9F80601FA01FDFEFE0201D801F509F517E1040F141B0005E6FE05141A242DFD2A05D6F1FF14F40BDCF142EEE2EFFA03F6020911F2DF16F40704FAD40016030019FAF6F5FAF613F00A0EF0E0C4003B1030C4000A0C00FDF5E7F91ED204E6D7FFCD1D2CE0F907EB092A0ED417AA9DCC54D25CF5ECF0C50811A5D131FEF001FDFDFC0A06FD070E0701F8FC0B0D08F9270AFDD90D1F061604DE14FFCB40350FF4FEF0DEFB09080C07F71917EAEDDE1027FE2AE4F70A0800F506E9F600,
FEFCECF9DF1ADD0702EF1CFA0D03F1071BF010F10B07EEF70604C90209FE180DEEDC2948EB371CEEF6C6126B5E0DAE2C24F0EEF2FD07E8392209F5DBFCD5070F09F0E8EEFA00F81908FD13FF0C0E00F5FA16EFE3EFEA11D60AF2EF0F2103DD1B0702C8D8C5E6F47FED41068E24C832EFCAFA1715041124E4F8CC021F15EBEC1F07E0D9F824FCAB13E533EFFD16E22FE6F2F1EF0E80D81777181C32CC5EFE20E9FAE03AF95908C9060FFCB31A88EC341BBD3E9CC88B000FFC39D93B8F28142055FB00F9F800F70614F723F4F8FC0306F7220F00F445E7F10DF726AD12F8D92DEF300E38F8F1E300F3F2D104FCE40902E0FA00FFFF0C1A02E905E0F41408F70319,
41F5F3CB800DED08C33836A36A51D82F10EA12F8F0D011EC19F4B86BDA262D282CFCC1B39FCC2D7F2532EB8811FA2D0C0920C50E80EA48E94A27159F29EBE5F3001529FA7F0A0FF2E4F4F5DAF003D50A0F03E9C77FFEFBF9FEE6E603EA0DF535F51303FBD5C51CFC22EC043EBB763FDDE60AFF357F09FA14F1101AB439C71C02F5F8EFF4B0BE14521E4DF1C3F07F5E54C941D0D529163ACAE8F734CD0B06051BFEC2F31DA11011561821395E191FC3F1F024D8F49BFDBDCBE3E426D2060E1B4FF611041D1611030EF9E6EF7FEF6AF60CBBFDC71092F17F04E70B3C824924F7CB263DB7F2C8CCFAC653D3F48012D37FD81832E6DE14E9D60B26F4CED5F8BFE61F,
FC071EEBF70DF6FBF11C07EDEA35000EF517F5FA01D20001FB00D30E00FC14E0D624051A1520430BECFF12CCF5F5CD2514091A17D4FCF4141003E1F7E62419F019F8EA062007EBEE0CF2F410FAF205FB33EF00D6D5FBF9FB08FBF70C0CF01604081A1F2F2A5B1BC1FAF233120B9DC143E1DC1BEEB412E8350D13EDF7FA2D2CF7E71C0326F8EC0EF2241507F907E324EAF1D240362021B805F8F2E017CBE20109E12DFCDEF0CD7FE6CE1F42883BF9D3164BCE3ADA9A0B04DE390922936389A91205F7FC00090500EDF905020B0FDF00060AE41910161CB201D904CA38DB353FFFF11EF1DEFEFAF4F317E7FDDFF23110F20219100AFBED040E03FFE80BFD030109,
08071FF30E09080200F5FDFDE3FBE2FA3524F0E3F003EFF1FE0728EBD71501DF0B050E0FFF0C09F518FAF21409E8E7F2040FF206E90A2A030DF7F0ECE10BEEE811FEF5FDF403140E000204FE0202FD00FC08ECE3EE100204040700FF1FDF0012E6FBF1FFF51E394A000629BC1E1609BDDCF809EE08F003E50AF6F31417F704FDF01126F70B13E203E6FBE6101BECFA10DD0300FEE9020B1008042EFB2BF1F9DB0AFD36101405DDF60D18A517BBCDEB3A4CD51DF09644513458CF41FD24BCDD9E040306F4F7FE06160A0BE1F6F3F80A07F4E9321EF7F3EB02E612F9F7D6EEEC1706F0F41F060FDDCFE4F731230E02F0F10D1AE6F3E7EB02F2FCF625FBEE1CFCDF,
E222EDCE6C0038C737F1EDEFFADA3DD7142DB7E8B7E007CE3FF2018028E629C2F2EEFEE8F1FC1A260114E7E1EF030AEE381FEE19D114FDFAC6F3291F1B3FC1FD16F8FE02FF00EFF3F4F7FD01FA15F81B0E14E200F103E42114050DEB11F100FFFB0507E906F3FF08F5E10936E5ED3039DDF60C001AFF180BF90002E62A370DD9CEFD0AEEF2190CEC10E914030A0323D20D01F8FE041CFA1CDCF03AFBE9280B07DE04BB1BD2CA2B1619234607FFEDEBC61A4B9C09EE804EEEB65801ACD22B211AF2060AF60A040AFA0903E00CE9EA18FF25CE11E81AF91EF9132331FB1CE60DDE33EC352DFE1EB90DA7F643122A43B60D1B0EE0FB80F0F7F703EE21B8244800E6,
03FBE8010500D5F8F5E4E4F300FBF718FF57D3F407DD0DF503E718E6EE3608E2060FE9090107F31CF4FE1CF7E8FEDD0A1CFD040D121C03DFFE04E72009E8D7050EF3140808FB0602F702EBFCFA01EC00F8FA13F6ED10090E05FF04F40D0AF6FCF902F423FC20E1EE0AF3261201D2DC08E603E4F601FBF8FF0306FE0D08FD1D03FB180C0B0CF3D4F5F6E8F0F7E20C33F9F2F1250E0020EF0302F2D214E8E8FB20E30D1ED006071C11140345D6140BF8F447D8B2E6A632E8C8BCF3402D3BC105F2FDF6FBF507F203F70902FB00FEFD0BEEB7F41302F247DA000500E102F6F4FE3916F220F2F923EBF2E0072B171A04E90B2F38DCEBFEEC14F2F6F51DF8FB2210E2,
FF0C9904063602F6FA7F1200052EFBF07F9E47DFED0417D1E6E0CF00029BD543B5186FBEDEB47F1E49C6F1FFEF2817FF70C2D60A1AD0E4A47B53EBFFF2E9CD7F7FCAD70BD3F1C0C9451119FFC855BF45070B4BCA80E07E4BD3E6F400A84B130E067FEFE7F51D10FBF6ED0500F2FF6CD2CB101ADEEBE4DC0777800E00ED1517FD0100F50EA6E304C01CFB1CFF7F05F70331E70AD9ADDDFDE3FD753AFFAB7F0A31E3FD2DE1A87BE07FBE931F00F9B816F2F427397F2F08CEEE10515700DD5CD2BEF83A6C79FAD88063ECC40400C40AEBBE8E1B5AD180F65CE0D31B8BFFACDD64E963C22B7F3D18EFB524EBB2FFD1A1DB46E57FF00101BC0DF3CE0719FFEC0A351A,
EF5EF1F1D7DC18C90727D800A40D7FD3AAF30EE50B3C0502E0FF03000935CD7FF7040CF67F18F86AEB09E700AFF310001C78FB7F3708EE9100E4150097B36790A6E155D7BDEF7FDCC90713FF7D8E191821040E10194904D61BEAEFFF0CE4907F0305F003FF0CDCFEE34A7FFFFB1AFCF8C814CE4EBDC3FFFA73FE13009E8018C8CB32E56FD6BCDBD1141B1EFF987FF8C961AFF1F7FDCF051FC2EF03002F14387F80B9833893FB3721A802B384E2AEAD92080915ECF1E67F1CC107D30000E10B07036103647722E1DB0CDD110008DE7F9F17F17B12E60E7F12E69BD6FFE62BCE1EE9037AF20DD81ECA5DE78000DCE4FEF7BC11F7EB377FFBB2CCEF0EFFF9305BA2;


