00000000000000FBDFFAE580E9F8F1E9
000000000000003F6D3BC180E6F8E9EA
0000000000000013231980B72401CE30
0000000000000002F800DC7F32FEF6FC
00000000000000FC08010E8006080509
000000000000000703F6FE7F0A0503FA
00000000000000FC10F90E80110007FD
00000000000000D52264CA90A3B08099
0000000000000009F104E87FEB07F50C
00000000000000FB0002FB7F01FFFCFE
00000000000000F60DFC17B67FF11FF6
00000000000000DE80BB50A834DBDF5C
00000000000000EC0315007F36152501
00000000000000B5711695F472C1B680
000000000000008FD3CD4EC580ED3E4B
000000000000000808F60F7F1C1104F2
00000000000000536F692D8014546355
000000000000003A89FE0EC7FE8004D4
00000000000000E68A51D980690F93A1
0000000000000007FBFEFA7FFC06FAFF
00000000000000CE29042C81DD0A7F02
00000000000000C63DEF7F3521B457C4
00000000000000254F000680FC04FF05
0000000000000009E60ADDB17F0CE10C
000000000000001E1D0B3F7F4C29010A
0000000000000005F303057F08050000
00000000000000B84E801E9304064919
00000000000000F5FEFE0080F0FCF4FC
000000000000000102FD04800602FD02
00000000000000F13920C67F2AEB3921
00000000000000FA02FC027F03FA00FC
00000000000000D548B7550F318D9680
0E00EE0D00EE7F1A0033063914FFEE19
0A3180BC78A6FEBC918597DBFEFE3AF4
F2000BF4000CEB23FF7E0178F7FF1254
3500FC2800E67F77FFF518FF34FFF400
03FF0400FF806ACFFFC300D30C0000E0
FABCDCA128FEF49512BBF384CC4884C6
FE000300007FBF0F003FFE31010025EF
E5FF01FAFF6AE3E70020F9160200040A
FFFF02FFFF23C500FF7FFF69FF000246
F8000403FF4219D3FF240022FFFFFB18
90F2B06C678802A1768A3761C64CBA7F
3EAF73808D99B5A0471E55C99807E53A
3700F723FFC3747F00F419FF3600D5FB
03FFFC03FFB53614000EFF11F8000EFA
1B5DFECC7FD083E40E9FDB48C7597F82
0000FFFF00E780FF005CFD53FC001269
F2010237260008EDFF07F2F51A0000F5
9C350C17A5798F6693B5F988A0493CB5
0E00FA7F7900E8F80938102107FF0000
0D0306FFFF006015FAEA0FEB60FFFF04
FEFF00DCF100F9EE84F5FD2104FF00F8
166ADC41809FEFD2CF393150F026664D
08FF00130BFF00F04C66FE51FF00FF19
0EFF002415FFF3FB7F030B03E9FFFF01
05FF006B5E00FFFC126EFB35FFFFFFFF
3601020A2800FB16CC3C537FFFFFFF2C
2E1E37EE976390C98DC21F46FA4D3F0F
69A78615E31C6FC8D22C8334B22973E9
F00001FE01FF5E25FED7F5C471FF00FA
EEFFFE04110003F2A07FE7ED01FF00F5
631EA51736EB342FC4ED4FBF6CDF520B
01FFFF5C5FFFFF011D2400FBFA000003
04FFF1FA00FFE914F207FFFFF707FFF9
0200FD0DFF00FCFB0204FFF9080100FA
13FF01F900004D1A000000FB0AF6FFDA
09FFF60A00FFFC13F5180004020600F9
F3FF0BC9FF0020EBF31FFF08F8E40007
FA00FF00FF00FCFEFFFF00FBF80300F7
FE0016E1FF00F100F806FF07DE1200E5
F7000224FF00D2DCFB1EFF011FE4FF2E
0F00FFF8FF00E427E02A00EDF15B00DA
1300E0FAFF00071A00ECFFFEF321FFDC
0FFFEC1C0000D812E32300F61424FFD8
05FF2D3700FF1CF0E55F00EA1FE8FF1B
FBFFECEAFF000EFB37F0FFFAF81900DB
F000F7090000FFF7FC080007110600FB
F2FFFB00FFFF1DF004F2FFFDFEEC00FA
F4C91897A9ACE62488BA1D0E4FF84CB0
03FF08F5FF000011F9030000EF03FFFD
0200F7FCFFFFF3F909EE00FBFE0DFFF0
0EFFE3EDFFFFF9DCCAD200FDF644FFD4
1B00EC04FFFFFC1B0028000103FE00FB
FEFFF7EE00000AFCFDE2000006F70003
0300FDF9000005FD0302FF03FB05FFF6
FDFFE9E00000C8FCF104FF01D70600A7
0200F206FFFF0D10F90C00FE1907FF14
00001835FF00F7E095F6FFFE01990048
2BFFE9EF0000F83EF4FCFF00FD7FFF99
0AFFF1EDFF0026212016FFF8E858FFC3
10007825FF00F6172A4C00EF14CCFF5B
F700E2DB00FF010400DD0001E924FFC1
F1FFF50C0000E1ED0404FFFF22FAFFFE
D800F1DF00000CDA00FBFF09EF82FF57
D9B0B70C4C545CBBAE0542E790E2B2C6
01FF01F20000FC0606FD0000F5FEFFFD
05FFFAF90000160103F500010AEDFF0C
F7FFBFF100FF1BCEE1C0FF07FA25FF14
F6FF1025FF0006F80010FFF914FB00F9
FFFFD7FB000000F6F20500011C060006
FCFF03FCFFFFFA040001FF03FDFC0000
F9003F0AFFFFD1F90D0D000602FA00EA
04FFE5E4FF00D91811FEFFFCF90CFFF6
07FFEB01FFFF02FE10EA00F2FFF3001F
00FF07340000E8E5C6E2FFFB14100009
0BFF100CFF003E03952AFF01F9BFFF14
F300263800FF29EA08DCFFE0160000D4
FDFFEA07FFFF26FDE0D60003FA2CFF02
0000FCFCFF000B0A0106FF07F6F60006
F300E9F2FF0028E5FAC6FFFE06F6FFFC
3ACA1DAFBD52B6EF93243933CEF8E15E
FEFFF0EA00000BFAEF07FF01F9FD00EB
0100090200FFEDFBF7FB00FFF709FFED
01FF4904FFFF1BFF56EEFFF3DE8CFF7F
1E00E3FA00FFFA3FFF1A0006F5F3FF1D
E900044800FF05DC121B00045E87007F
FE0002F900000100FD05FFF600FF00F5
FC00EECB00FF01FBF8140003DFF20013
EFFF19FBFF00E1EAE020FF02EA1FFFA2
05001E08FF00E3F9E911FFFCF1A7FF34
FCFF0AEEFF00F0EE1B0700FFE4C30013
F900FE0800FFE006F7EDFFFE10B0003A
12FF1F1B00FF5524CE3B0008F40FFF18
0100050900FFD101CD0CFFFFFD44FFCC
E700010AFFFFF2EEEF1B001435EF0007
0EFF10030000F00CFF0100010C11FFF5
560EB2D3C4E9C3E437BCC7DB2B323832
FFFF06ECFFFF0902070900FEE8F6FFED
0400E304FFFF090D02EB00FEF23FFFDB
1D000ADAFFFFCC227DD300FAF9E1FFCB
3BFFF8E1FFFF0E71ED7F0002FD6200B0
F7FFCBEB0000FBFB7AD800F9D809FFEA
14FFF818FF001A19FB1C00FE4FCAFF7F
00FFF127FF000BF7EB14FFFA0CF0003C
FB003B1AFF00FAE180FAFF0BEE920059
030016F200FF04F07F9900F1B50EFFEB
12FF2A02FFFFBA0E37CE0000FFD8FF16
E800F2DC00FFF5B8449C00FAD9F000DB
0D005324FF00181C74310002FEACFF56
FEFF100E0000F31F950E000116EB002F
4FFFFB49FFFFE623F91800FD7F7900DC
4200F4FFFFFF213008F600050B7FFFCF
060207B50756325F19680FB996BDF4D2
0000F9F0FF0004FE00FFFF00EFFBFFFE
F7FF1E08FFFF110880FB000AFBCC0050
F5FF93D500FFC8F5DFCCFFFBFA0AFFC8
07000A2000000EFF080200F107E4FF1A
06FFF71700FFD70703F6FFFB0B00000F
FC00F6FB0000F7000409000803FFFFFE
FE00233400001EF80F16FF047FC7FF54
0800D5EF00005515FD1A00FFFE070000
13FFF5DE00FFEC0E67EE00F8F953FFAB
08FF181FFFFFF4F611D100FA2B08FFF3
08FFAFFDFFFF1F247F04FFF8F97100B9
F7FF114BFFFF20F261CAFFF522C3001A
FC00EAD5FFFF0608CE380000E3F0FFF1
F300FB04FF00EBFFFA1B00FE00E6FF16
0400FF06FFFFFB1AB2DB00FF1E08FFFF
20E607ACD5B94776A1EEC4BC91EA2E21
FF0000670000F8FEE0FF00017F03FF41
00FFFDFD00FF00FF0402FFF801F5FF00
1DFF2429FFFF35390A1C00FF0DEA001E
0E00F712FFFF0D0AF11A00FC06F70002
0AFFE726FF000803F52000F9181D00D6
FE000002FFFFFFFEFDFCFF000403FFF4
FBFFF5F400FF0BFAF510FF02F8F600EE
03FFF4F300002A2216F300F3F348FFC8
08FFEEFDFF001DF6FB2E000BFBE6FF09
F9001A0400FF1AF2FC0500FFDCD9FF29
0300E1B80000F221D6340005F814FF1F
0100A28DFFFFF3F40310FF18DB11FF88
07FF10F30000EC07E92100FF08F500FC
F50002FEFF0014FB03F300F8000100ED
08FFFCF900FFFC04FC0DFF0300FAFFF9
B218980FD641DAB3DBCEA203DA67A839
FEFFF9FA000008FA18EAFFFA01F0FFF7
020004FEFFFFE40803F000F80404FFF9
1200FAF6FFFFE7F8EEEBFFFBF41DFFD7
0BFF0EFB0000F905F91800FBF204FFF1
1600D4FAFF0003290D1300F6E36200B1
FFFFFEF900FF0CFA0102FF05030FFFE6
0400F318FFFF10060A03FFFC0516FFF9
01FFF8FA00FFFC0AF406FFFDF91000F0
18FFEF0CFFFF181634C000F9FE5C00B0
F6000DE8FF0030F308F000FFEEC5002F
F800EB0D0000A6DBC600000B1C91FF6A
0A0080A7FF00AF1B92E60002E65A0080
FCFF22F800FF10E418E5FF00FD80006B
E300FBF000FF1CF3070A00F6F9DD0008
19FF061400FFCD0014EB00010C18FFE5
AF0C1CDFB146C1D0D4C20FE930CEFAF3
FF00F4FE0000F7F7F70000FFF803FFFF
020008F8FF0017010DE7FF0006FF00FC
EF00E2FC0000F9C2E9040006F51E0012
F5FF0B100000030F190000FB02E7FF07
17FF050B0000EB0C08F500F50804FFF5
FE0002FEFFFF0600FB06000404FCFF00
F7FF061F00FF18F50BF5FFF82B14FFFD
F500E0F5000018E1F30B00F704EEFF04
F7002726FF000ACF9F28000423BB0031
04FF0AFDFFFF2DFC18D6FFFC17FC00F7
0600D90DFF00CD06F108FFFD16FDFF2A
E600D3EBFFFFE6E6ADC1FFFCF06300ED
0800F7E20000F41B35FBFF00EBF70013
F50004FA00FF1207F316FF05FD05FFF4
FDFF11FDFFFF02F501EF000311FFFF03
1D41AEC808FB263D37AA576816C42F80
00EB110F17F1050F0016FBF7F80F0CF8
00F7EFF90BE52512E621EA13160617F9
FFF61AE1DB2210F91C15F2122AD2E421
FFFEFD0C23F7F4FBE50011E5CD36EA02
FF04FD0C16EBF4FA06F501F1F80F0801
FF27F8E5CC58D6E100D70CE727011941
0013000919FB02FFDA0B05DCFA12EF1D
FF1FE60BAB1EFA2A1EF516193590180B
00FC01FA05FBFF03070506000901050B
FFFEF8F214FBF70100E50D08DC0109F4
FF01DA0902C70EEFD9020A111403DAE5
000A00FAFC05020D090CF9FC15F0FED8
0000FE0900FE01FEF00503FAEF10FAF9
00FC1D010602FE06FE01FDF7E302F61B
0003F1010505FBFFF91BEE06FA0703FD
FFE118FC060307060EF0FC07F6F31604
00072A1B13E5EC0A152CE8F7E717F6D8
000223482609E937121DAE0C29192DF4
FF3A16EBFCEA02D918FBD1CF1E12CEE0
0012E7142408D304092301CC0B31F8E5
00F1E7EBFD1D07F610FD0F0507090C14
00F01387EC4D45D8E9D5651AECD2BFD2
FFF8F3041C01F4FAEAFAFAF6FF1EF9F3
00031D0485030F22F61502D629AD13B7
FFFB17F90502F7040B07E900FB000A00
001680F31021F9FF14EE64FEF60610FC
FF08EA00DAC0E537DC27EA1E210BAD36
0003E00BF60F08FC08F81C0807FDEF00
FF01F9130EF1F7FD0306F3F8FB18F0DF
FFFCB515E0F40FDEE7C70CE710FDE5E4
00F130150103FD05001380EA0FFEF8F0
0000BCE6FFF8F3EE0AEF7F01D9150AFA
FFF0F8231C0BE0020F04E606E606FB05
FFE11D23520D2402B4FED9EBF8FE13C5
0000330E9330F8F111ED2F03EED5E959
FFF5EBF82717EE0F181302C9E71F03D8
FF0A0BEBE20204F904FFF8010BFD011F
FFF926CBD8133CDDF3E4F51CC0DBFABB
FF04EF0C20FC01FDF7FB0CEFEB1B05D7
FFE2E3EEA436E900D206E8B93C04082C
00FA0B00FEFDF80A0700F8070AF9FF08
0001DAF70E0A0CF7FCFA31F7F3F90DE7
00F06E2A08BF073A3706BDFA010DFCF0
FF0000FAF6F5051510FCF9E51FFEEDD9
0017F1180B02EEF2F10E0AFE0C0BFBFF
FF1604E819F409EACCFA1E03F212FF43
00FEFDEC000602051509DDF0FC03FAFB
00F7EF151DF905F60EF60B1CFA090BD3
FF25DF06F6DB2109E3F41FFB140F11CD
FF08D728EB03EE4510C906060407D200
004BAEEC2B240CF22A31030BCB0DD400
FF0122020FFE0CF4F101FBF205118001
FFF3F90014F809F6FF0DF1041807EAFD
FF454EE8D03413F85D14BEFA0AF37EFE
00187F030A1AFAE70918DEEB1F12171B
002E17F606FBFE301927C1F72888CED5
FFFC04FA0205FB05090BF30208000704
00FE06001000F3080908E2FFFC04FA02
FF111634F8DBE500E0FCF9F5D5300A04
FF0DDC0BFCEC00FE110D01F708EDE1E4
FF030A050309F900FDFD0EFFFA08EFF6
0005F4FD0CEBFFEBECF81DF8F60808F6
FFFB0F04F8FB030E01FC17F4F509F208
FF01F1FD05E8EDF107E1E80802030F08
0002BB2FE7D6F509EFBD711900E3FFE2
00BA7F241FAD10F8DD21DCD17C38FAF9
FF46E2E42602F5A7231E40B6C2FDE6E1
00000C2D03E6CBDCD20602CA511BB3F1
00016518EB1D0202F9FA97E9291217EB
FFF3B9DE07DDF9381222EB03D1155E06
00F4C00C0401DEE202F408D409F0E714
00E046FF0DCA08D2F5146BD585C2C7AD
0015D2F60505060E05077F08EB000603
005439E00A12B2F00E25A1EA2D19E90D
FF7F12FB0CBF973EFEF2F2011A075C18
FF3C1D18F8E01CC80234BC05EA00F6F8
00DED1180EEBFEF8F3DF23E2F31980F2
FF052E38F3DB11DBEEFB7FF2F8EDB912
FFDAD600F3F00C0B16E857FCEF0801F8
FF5147EC000631F317DAA81128010A0E
00FEEF05AFFB10D3A3EA343D2AF708D0
00DE0FFFF91DE71EE0F1EEF9270C0F9B
FFE238BCCC2EF6BAF8E6C914F9B5CF7F
0004E00F22F108F2E6091AAEFF0A12EB
000CF006110EE7042504FFE518EBF922
00DAD8FDE2421FE10EDE34C50C2315FA
FF00E20414F20FF4EA051DFEF02114F5
00F83CE2B52CCEE8F8DB5DE180E9C1D3
0001FC0005FFFA0FFC07F50D02FEFC05
FFF9FD190911E7F3E11BE1F10E08F815
00AE911C17AF3F0195E228F21DFF222D
FFE21120F405FBF4D9FE7FBBC3E8D8D7
FF2171F101E41505DA11F103210ADEEE
FF0403E4110A1CCFD30129E3D3FD0CCD
0003F90FF70AEEF80F0319FF080E09F3
FFF8E8EBFD0F1602F9F3F7090DE70302
FF1EEAF1FB05170A01E9F50DECFDECF0
FFF4242D00E1F03EC8CB2ED3B0140A18
FFFF97CFF9271A0B353D2D3CF6E69EF2
00D624F411E5FCF00B05FAF5ED1F010C
00F1030804DE1BE3EC0315FDE808E5FF
00A5E5E80BFE3ACF02E1050F25D980D3
00020DF9FDE902010B15FBF50605F901
FFF8FF18E92D002618FDF3163DA80ED3
FFFBFF020104FA0904FC05FDFE040303
00F2FEFF04F7F2F90202FEFEF50B0706
0008171DF4F20717D926F7ECE300FBE9
FFF7040404150BF5FE10F70C03F9E6EE
00FE08F9010700FC01FDFA05F4FFFE0A
00FA0106F2F309FDF9FF0E000A00F604
0001F4FBF805FE00FEF1080203FDF402
00F20501FCFD00FC08ECFAFF05FA0AF7
007F56DF1700F5FCF8C9B3FF12E6C9F3
FFA69A292ED64BCAB2EE5CDECA05FEEC
00E45BBFCAF875AF56C84820DF38CE0F
00C718F20DF51CFF0D0BEFF91C13080B
FF80E510F2D743EF08D274E7EE2701ED
FF5B1CE3FF47F6D63BF7DDFFDFE40BDE
FFF7FE00FAF6FDFC0AFFF7F60116F90B
00EC04CDF321BEDCE8CE0F3E14ADF9BC
FFEDED0001020909FDF90C01F60504FE
FFDF1AEF04ECFAFB031AEE060C02F415
0006D426FCF2E231EC03160AF1FBE3F8
001D0DEDFFFD05CBFC2CF814FEEED5E1
FFF9FA0007F805F3F600F1FDFD16F1FA
00E8F6E106F0F2D5EFE11F1516E801FD
FFF7F5FF070AF8FA04F010FD0AFAFE06
FFDFFCED00EE080403F9FB1200FC0BF0
FF032CEB07DFD60FB3CEE1F9F0D4ED0C
FF93C60EEEFA440AA5B051D4FB470CEA
000C31CB14F927E10BC7A71018D9DFE6
FF04F70B1408F213EE10F6EBFF1A0918
FF0407EFEDF142EC09FCF70EE41902F6
FF3406D70B33EDE8D0DAEDF11509F718
00FCFF0314FB13FC0F0C07F4F6130808
FFF7F4A4E60FDBE527CED72907FA04DB
00FAFD03FA01FF050103050703FFFF03
00F620EEF90801FE1BEEEA0E03020816
FFEA0232E8E1CA12F4D81E2FE5BBEBF7
000E0E1407D4EEE21AFCECF409E2DCE4
FFF703F7060014FBFD1617F91915E7FD
0007EDF7FF0207EE0104FCEB0E0BFC25
FF01FBFEFB03FCFBF70006000402FD0B
00FA09FAF008FB0014FFFB0D04EC01E2
EADE0E160803210C011AEDE8141103FA
FA07F407FBDBF702F9ED400BFB29EFF0
F003F0FDEEF20AFD0E051013F50701FB
0FE43DDE1F0DEDEE44FDEDEB6CD0E0CD
04020BFD0F0C01FCF501F90108F9F8FE
EEFBD0E20A010E37A4D3D04919D5F8F6
F60716DDFB0802E9EB0B10ECF70C10F7
2B021A2E1FCDE1DD1BFDE80725CC17EB
290AE906EB05D6FE0204F906F3E7F6EB
E7F20713F41630060309D8CEED0D0B0A
140CE8F40DFFF6EFF41DEFC90B020D02
0E00EB0DEF06FE09E90A08EA040B02F8
13F908F9F7F3F4E93E160306E8071EFC
02EC390133B1FEB610F62CFD0B03E2AC
FFE5F7F3ED06FFFE06FAD6CF0D0DE7EB
390C21B9ECFEDDA4F6042F290C19FD29
C8161652DDEB272704C82E152EF2EB30
3F1B1FD0DCD8C8E4E80B3F5134E71EC3
01FB1A1209E107E2010F0BF505CF0B09
0723F821DFF4EA10BD4D42B40628203E
06180302EB08F51208FE0706EE1DF0F9
1F0FDDF5FACEEADEC0F7DFB903080E2A
1C09F3FDE306F0DEF70549F4FCE91AF0
5C1A36EF04DCA5E60DE628202A030AE7
D8F3D236DB221149F30A07E4A5F80AEB
041A16F70FFCE8040AC726560FC80CE9
03EB06DD26F006E3E20BD18048EEE035
EAFBD908F10C00BCFAF8FAFBFEF9EA14
05F73ED1FBFECE912BF1D461024B15E2
2BF7FADE1AB6C9BDDA0F2AEDE738D197
D3F7E2DA0A2B2E4801DEB0DEF547FC0A
D81E07D1384D050E200BF83AD9F0E004
1DE10EE03BC7EB1DE2E7FF130A28F605
1A09280F03FAF1C70222DFDD0A3AE929
04FEF508F8F4F8EC0119F8F10D070EFB
0404E5FFDBF0F0F0A30E181207112FAA
FD04FAF705050C06FEF70000EF010507
09370122F4F9F700F7E70A0016F1EECB
04FDFDE8E60F0C1AFF0FFA14F7F9E8E3
2BF91007F708C9F0E628E9F91E0EED10
0D02F0F01EF1FD10CCD201FFE90EFDE8
1BFCF103F12EF0F520E3DCE2DBE9EF11
FFF60B0FF714FEEBEF03D0CD38071103
000AEC06F60508FEFD04FAF7F305080E
FBEFEED914FF06DCED260403F01A23EE
1737BA1904F70703F90719E002E7D8E6
CBEDE3F4160D2938F7F9F7F51721EF14
E0DB0BECFD4C26122DCEFF09E40CF728
182FFE1305DEE4E8C8DB482B17ECD4C2
EDF9ED45BC051F30BEFB4BF8DE08E0F5
F90C0CF828080CDFF6F91626F5FCFA04
2E140B9A2632BDF1FDCFE13150EC02F7
FFFB2AF4FDFBFCF41BF1F8F31CFE0D0C
F3E2D4C4E9FDDC258FDDE03428D00BCD
D6FAB5F00BFB2E1CF13B2FF5E8E924FB
D6F740EDF2471401EE05E11E1734D7DE
0EE9245ABA13F7F50DFE1903BC02E6C9
2803F8A91102C0F6D8D6DE0808EFE5F2
1B0E0405C8D3F10BF51302E1F304F109
02FDDF49FEF104ED110111F605F0050B
03F0F5F11D27CC204007D3FB2BE9FFF8
FEEA20F05C8009DE39E70D220F0F0E0C
1918E95B0AE2E832B22705C2E0DCDCB2
B0E1E4498C2E0F43EE0209F8D71FF82F
0E7FAAE51ECEC9F5E22E6C41FDF4EDF4
C729E157E3181D0FC1070F38C3E0CDE1
2A66EDE50803E57F1D2217F9E206FA0B
0A4C6225D319313DA34D1CDEAE2DCC47
D2BD5113E90A0E7F16D5F10325F81224
02F61ACC19B51000B40D13AE0DDB9FEE
09E2A73D12DC0BE2F92CE8FE04E2CB22
B803E6351454434E1F18F214E1D3027F
0140BA7FD929DF41E71EED05ACC3DE30
CEF9C5D72D100725DA4AFF02CDEEF5D8
3AFAFAD0F9CDBF3A0C0222D71FF45E02
50C1FBDFFA10F5802DCCE62639FF2D1F
DA98EA2318C4BE7FD9F9CCC30B251411
21CD1C03F3A6D8393AFF2ED5FD581407
F0C6070B00E814CF9716252916B96DE4
C328157AB31D21D3FADD37C6E40C19FD
1C0605FAF7E1FBEE13FA2318EF231F12
0FEDFED813EAEE17F8804DFDF5F512D8
FDFDF9DA17F40D0FF10607FDF51209FC
B5E29E2DE7E83ABB80A2C106F7D0D8F4
FB18030303FFFFF8F50F01FE08FF0100
F7210611B41527FB190EEC0EDB0CD504
12DF1BD9E2EFCB67F37FE6F801ED04DB
C4EEDFE81C272220FFCFF7C0FBCEFCF7
24DEC1A03CD2F4D806AF2FD8CA0216C9
17042037B43AE8ED321CFEE6C9DC084D
14ED13141011E3E2053CAFB5342F1728
F306E904FD0813F1F63DF5F914FB031C
F6DD1A130D08E81EF21104F011130C1F
3AEE10E836CE0E01EBB258E1E1454CDC
0633FD2FF604FDE5E61401F2F81CFC35
ECFEDB150D171529F599E306D6B0F2F9
1C0F08FA02141518EACF422BFFFDC0FF
19F109E838B715F5FA03061018EAE211
0FF901E5F71CFEFE11FC0302FE07FE05
0514FDFD2921C2F105E623FB47D70711
FBEF03F707F700FAFCFCF8FA050504FF
E8D10E417A7FEE09BBECF41E29FA9CDF
0EFC25DA1C0BEC11F8FDDD08FCFCFB0A
BB2DC1CDBFF2410FB5231B1AF8F8E42B
ECEDE933DE011F0FFDF5EF08DEFD03EC
06E9EC061C0FF81434D10404FFFC0503
FA0EFDEF01192610D80EE5FDF2FFF6F2
0DF7F7E300F8F51108FDE5E600040706
FEFBFAF90CFFF1EC12F604FAFE1214E7
F6FF01F8FC8CED18F0292B1905FDDD09
13080FEBF280FEF32ADAF4EC2FEF1505
FBFF2DB2517F0AE6032EDEFF4526D5E0
3C45F9C728C832FB0F110C52EAD3A0CC
A730F014FFDC2B0F2F043506F718FCFB
29FA01040A0D48F807FEF019F4F3EDDB
F1072B2F2E0A4E00D80000203803F2D0
2AE617F60102EAF803F601F0130D0A05
21D3F3F865CB3D0DB713F7461CDA8585
5E1307F6210208CD1CDACC0625CEF5FF
2B36FE36D4384CA5A5ED0AF4BAE7E12C
FBCC34EC422708110700CB18E7E8D4DA
8025FF0CC52855F3431F0DD1CA194AE7
E4D809030605E904F213DFF6130C17FB
0BBD0AF8F7F7B3F0ECF70FE618051909
42F905DDF9009F070604EF12DCFB0015
3DC51F0BFCB3D2CD2C2E33190C00E4B8
BB1DEFF720E7AE0E08FF1ACD150D5D38
211430AA6AF21AD3E91EAB201FF1DF20
FFFDFF0DEDE3E3E2083AF0013BFDF407
EE03FCEFF4DF0708040D40090D0503F8
E2FDF10506EB1802F9050008FDFEF5FF
F312E0BD0DE9C51EB1E6D8E71DEAE7F3
18F202F50004020C06FE04F7FD0B0BFF
D7170D1CF80E03F5F7F3B93A4201C0DC
DCC516F7F10BBC2BDE401FD4D9EF230A
D526FEE9F9121A2BD0B20F0E05F0FBE8
F9E8F3E91ED40810D8D6D4DF1F282119
22C3210DF82FF2E9061EFFE8DCF1061D
F4FDF50312FD060DE60DE9DC16040217
FDEFFD01EF05F203050212F007030C07
EE1ED9FCECFFE9F3091200FBF7F003F2
3DEF24D30FC0D1DBF80A1E09E220F4AB
F908E9EF1208060502EEE4EE17CF10FF
E3F7F9F30DF9D2DA0705CEDA3736242E
03F2370C0DFF090D0AFFFBF3FDED0007
0D1EC4E208ECDAE709F80A01120CFB0E
E0EEC9F6011BC903163A1E0108F0FD07
F7FEF3FF00FAF908FA020506010001F6
E16AB8F5228D0EF0200F31119813BE2F
EEB9083B0B1F10C217DDB91BFCDFF030
E723D3ECEFD40E32E7E3ECFB120B2EE9
EDDAF710F9FFEDD52E34FF0FFBF41DF4
FEF619F5F60606EF0311EAF716FAFA08
FD25DCF310E80E1A03001600170D11CA
05132AFFFC0704F7F8E624F709F001FB
0400EEF70AFA00FCFA0B0D08E60300F9
F405101B0C091CEC14ECE50C07ECE4FC
03FC2E2AFD39FC01E8DF13FD22D9E930
D0FE011F030912FEE100FF1101E7F20E
F3FCF8F5020CFD0D00E1EB0315FE0300
CFDB3844172E11E41402F823F4E91EF2
1743F7DDC7F2CFFF320603EF03210EF1
0F3E2FBD9EC24817BE263CE831271701
0DFCF7F2F901FEFDFD050F0AF5EFF413
54A2171BEC36D2A23AE127D81BE02750
070A06F4F82114DABD3830FD23F1DD00
F20E25F8040A3A01F6F9EB07EB0EFFF1
E233F4DE00D0F60F8EEBFBFAFE250CF0
FAF0F01024EF050D190103F80A1A0506
FA02EAEBEBED0EFBEAE6030AE70AF4D4
EEE80935F60605EB0BFD210516F50DF4
02F30602E10107F91F0C06FAF71F10EA
1A33DCF50913300F2DCFD6F4F7EDDE04
EBE4D3E8DAD80C3626FCD1FB02100BC7
28F823271557E00DB50705F713C9BC26
ECF20CECE8F315E93CDFEF2BE63119CD
EDDE1027FE2AE4F70A0800F506E9F600
40350FF4FEF0DEFB09080C07F71917EA
0D08F9270AFDD90D1F061604DE14FFCB
FEF001FDFDFC0A06FD070E0701F8FC0B
17AA9DCC54D25CF5ECF0C50811A5D131
D204E6D7FFCD1D2CE0F907EB092A0ED4
E0C4003B1030C4000A0C00FDF5E7F91E
D40016030019FAF6F5FAF613F00A0EF0
EEE2EFFA03F6020911F2DF16F40704FA
141A242DFD2A05D6F1FF14F40BDCF142
D801F509F517E1040F141B0005E6FE05
0DFB00F707F9F80601FA01FDFEFE0201
331CFD09EF1712000B02D3F40117ED0B
FF330DFE01033224E6F0FBFBF21600F2
41E42431F43DFAF4D811F80308E7F021
0611FE0FF507FC0631EEEC0803F30ADB
FA00FFFF0C1A02E905E0F41408F70319
300E38F8F1E300F3F2D104FCE40902E0
220F00F445E7F10DF726AD12F8D92DEF
FB00F9F800F70614F723F4F8FC0306F7
BD3E9CC88B000FFC39D93B8F28142055
FAE03AF95908C9060FFCB31A88EC341B
F2F1EF0E80D81777181C32CC5EFE20E9
07E0D9F824FCAB13E533EFFD16E22FE6
CAFA1715041124E4F8CC021F15EBEC1F
0702C8D8C5E6F47FED41068E24C832EF
FA16EFE3EFEA11D60AF2EF0F2103DD1B
09F0E8EEFA00F81908FD13FF0C0E00F5
24F0EEF2FD07E8392209F5DBFCD5070F
EEDC2948EB371CEEF6C6126B5E0DAE2C
1BF010F10B07EEF70604C90209FE180D
FEFCECF9DF1ADD0702EF1CFA0D03F107
1832E6DE14E9D60B26F4CED5F8BFE61F
263DB7F2C8CCFAC653D3F48012D37FD8
BBFDC71092F17F04E70B3C824924F7CB
F611041D1611030EF9E6EF7FEF6AF60C
F024D8F49BFDBDCBE3E426D2060E1B4F
FEC2F31DA11011561821395E191FC3F1
C941D0D529163ACAE8F734CD0B06051B
F5F8EFF4B0BE14521E4DF1C3F07F5E54
E60AFF357F09FA14F1101AB439C71C02
F51303FBD5C51CFC22EC043EBB763FDD
0F03E9C77FFEFBF9FEE6E603EA0DF535
001529FA7F0A0FF2E4F4F5DAF003D50A
0920C50E80EA48E94A27159F29EBE5F3
2CFCC1B39FCC2D7F2532EB8811FA2D0C
10EA12F8F0D011EC19F4B86BDA262D28
41F5F3CB800DED08C33836A36A51D82F
0219100AFBED040E03FFE80BFD030109
F11EF1DEFEFAF4F317E7FDDFF23110F2
0AE41910161CB201D904CA38DB353FFF
05F7FC00090500EDF905020B0FDF0006
4BCE3ADA9A0B04DE390922936389A912
E12DFCDEF0CD7FE6CE1F42883BF9D316
F1D240362021B805F8F2E017CBE20109
E71C0326F8EC0EF2241507F907E324EA
E1DC1BEEB412E8350D13EDF7FA2D2CF7
081A1F2F2A5B1BC1FAF233120B9DC143
33EF00D6D5FBF9FB08FBF70C0CF01604
19F8EA062007EBEE0CF2F410FAF205FB
14091A17D4FCF4141003E1F7E62419F0
D624051A1520430BECFF12CCF5F5CD25
F517F5FA01D20001FB00D30E00FC14E0
FC071EEBF70DF6FBF11C07EDEA35000E
0D1AE6F3E7EB02F2FCF625FBEE1CFCDF
06F0F41F060FDDCFE4F731230E02F0F1
F4E9321EF7F3EB02E612F9F7D6EEEC17
040306F4F7FE06160A0BE1F6F3F80A07
4CD51DF09644513458CF41FD24BCDD9E
0AFD36101405DDF60D18A517BBCDEB3A
DD0300FEE9020B1008042EFB2BF1F9DB
F01126F70B13E203E6FBE6101BECFA10
DCF809EE08F003E50AF6F31417F704FD
E6FBF1FFF51E394A000629BC1E1609BD
FC08ECE3EE100204040700FF1FDF0012
11FEF5FDF403140E000204FE0202FD00
040FF206E90A2A030DF7F0ECE10BEEE8
0B050E0FFF0C09F518FAF21409E8E7F2
3524F0E3F003EFF1FE0728EBD71501DF
08071FF30E09080200F5FDFDE3FBE2FA
1B0EE0FB80F0F7F703EE21B8244800E6
33EC352DFE1EB90DA7F643122A43B60D
25CE11E81AF91EF9132331FB1CE60DDE
F2060AF60A040AFA0903E00CE9EA18FF
1A4B9C09EE804EEEB65801ACD22B211A
DE04BB1BD2CA2B1619234607FFEDEBC6
0D01F8FE041CFA1CDCF03AFBE9280B07
CEFD0AEEF2190CEC10E914030A0323D2
DDF60C001AFF180BF90002E62A370DD9
FB0507E906F3FF08F5E10936E5ED3039
0E14E200F103E42114050DEB11F100FF
16F8FE02FF00EFF3F4F7FD01FA15F81B
381FEE19D114FDFAC6F3291F1B3FC1FD
F2EEFEE8F1FC1A260114E7E1EF030AEE
142DB7E8B7E007CE3FF2018028E629C2
E222EDCE6C0038C737F1EDEFFADA3DD7
2F38DCEBFEEC14F2F6F51DF8FB2210E2
16F220F2F923EBF2E0072B171A04E90B
B7F41302F247DA000500E102F6F4FE39
FDF6FBF507F203F70902FB00FEFD0BEE
47D8B2E6A632E8C8BCF3402D3BC105F2
E30D1ED006071C11140345D6140BF8F4
F2F1250E0020EF0302F2D214E8E8FB20
FB180C0B0CF3D4F5F6E8F0F7E20C33F9
E603E4F601FBF8FF0306FE0D08FD1D03
F902F423FC20E1EE0AF3261201D2DC08
F8FA13F6ED10090E05FF04F40D0AF6FC
0EF3140808FB0602F702EBFCFA01EC00
1CFD040D121C03DFFE04E72009E8D705
060FE9090107F31CF4FE1CF7E8FEDD0A
FF57D3F407DD0DF503E718E6EE3608E2
03FBE8010500D5F8F5E4E4F300FBF718
E57FF00101BC0DF3CE0719FFEC0A351A
63C22B7F3D18EFB524EBB2FFD1A1DB46
8E1B5AD180F65CE0D31B8BFFACDD64E9
F83A6C79FAD88063ECC40400C40AEBBE
F427397F2F08CEEE10515700DD5CD2BE
E3FD2DE1A87BE07FBE931F00F9B816F2
31E70AD9ADDDFDE3FD753AFFAB7F0A31
0100F50EA6E304C01CFB1CFF7F05F703
CB101ADEEBE4DC0777800E00ED1517FD
067FEFE7F51D10FBF6ED0500F2FF6CD2
070B4BCA80E07E4BD3E6F400A84B130E
7FCAD70BD3F1C0C9451119FFC855BF45
70C2D60A1AD0E4A47B53EBFFF2E9CD7F
B5186FBEDEB47F1E49C6F1FFEF2817FF
7F9E47DFED0417D1E6E0CF00029BD543
FF0C9904063602F6FA7F1200052EFBF0
BC11F7EB377FFBB2CCEF0EFFF9305BA2
E9037AF20DD81ECA5DE78000DCE4FEF7
17F17B12E60E7F12E69BD6FFE62BCE1E
036103647722E1DB0CDD110008DE7F9F
080915ECF1E67F1CC107D30000E10B07
80B9833893FB3721A802B384E2AEAD92
61AFF1F7FDCF051FC2EF03002F14387F
CB32E56FD6BCDBD1141B1EFF987FF8C9
C814CE4EBDC3FFFA73FE13009E8018C8
0305F003FF0CDCFEE34A7FFFFB1AFCF8
21040E10194904D61BEAEFFF0CE4907F
A6E155D7BDEF7FDCC90713FF7D8E1918
1C78FB7F3708EE9100E4150097B36790
F7040CF67F18F86AEB09E700AFF31000
AAF30EE50B3C0502E0FF03000935CD7F
EF5EF1F1D7DC18C90727D800A40D7FD3
FFFFEA02FB00160E1009E5E60CFD0B28
FF000F01FD0DFFEAF0F42209EB06F801
FE07FCFFFB01E5FCF5010309F50BF4DF
030007F6FF0AF7F0F4F9060CFA07FEFA
00032909E72FEAC127061A10E61D106A
13FDF7F7FCC92A2823F2EFFC23F14C68
020BF20A0EF6DB0ACEFA07ED00FB0FB0
090CFC070FF6C700D40EF6F7F6FAF8AA
0703FE0309FA0705EFEFF90801F50405
F6FAE026F7F3E506191705F80515E735
080206ECF9FA07FEFCF9010105FC11EF
FBF9FFF907070009F9F903F40DFB1FDC
E913F2E8054EE1DB33E6A51F080AE9F1
02171C0BF0EA03F3C3F65AE71A0503FD
F2F1D212FE091E0C202692CA4D021008
FD071001ED0BFEEBC1EA60EDEF13F900
1158186A0407D31530A6368049F84CEA
2919ECEE76C4990A3F7FE44A85D8FDF2
15E66E96867F4CA72EBD46E7D85280D3
1BA8F52008864B6815F8E86411EAF1E2
5AF6FBEF18E0F60FC813F10503F201F9
8B16EB16013104032EF900320CFC4BE4
41E9E71526FBFD16B1E6F328EFE5150B
C0F4C7AFE8E322F0286202E21323C706
FB04FD0DFD00FF0AEF01FDF605FE0403
05FFFC0407F8F906F00504FC03F70503
F000EDFCF1230EF226D2E016F910F7EF
08F7090BFCE7FB08F00C1EF60EFE0203
FFEE0BFCF0040CF9C4F80914FE09E102
03E50A00F3FB080CBCFBF8FD0901EF06
01F90219F0E7E40F25EA1EDC28031615
1FF1F3BF04010EF0312AF0F9CD0B13F8
06FEFEF801FDFFF5F20CFFF7FEFD0502
0DFCF7F1030609F6F4FF03FB03FEF2FF
25F602F7FCEA02FDEA15F5EDF901F0FD
D2F9F808FA1AEA0516F40625F900EA06
0BEFEBD905FC05FEFB0500FC08120CFF
06050E02F9FB00E9000DFF0200FFF0F9
00110D060FFBFB00FC0B00FCF0FFFF04
10090EFDF5FDFBF6000AFF01FCF8F4FC
E4C5DA0AFA94F0ECFF2100021906F0FD
11BDDAB51CCB0EFA090800E509DDFBFD
025432E5FF5305F8F022000CE40A0DFC
FA412E060A2BFCF2FF1C00F5E110F805
FF000FFF0A0CFEFBF9F900CDF8EC0CFD
DBEEE71A06C1FFF40916003E0F0CFE05
03FD05FE0506F702FDF800FAF9F90604
0A1005D6F32405080701FF04F9F4FBFE
0C08CEDC111440E7FD1EFF01E9E207FD
04023A06EDF2C7F6ECF90008F810FEF2
CEF6D73EF8042521FECDFF0A26062B0E
01063B17F5FFE501F0FFFF04F7150708
AA27D5B7CE12AAE69FF6FF07CD513F0D
DB24C695291F2DC3152700C4C6F19818
7CDDD6519420B41D02D800E9284C1527
F8EBE2722AFC3033519D00D05086D708
180235EFF5FF13FC1103FFCAFDFEE7F6
EC08D6DD2220F4FAF5F4FF3AE9B30FF5
F50C4806F4F0190E15EF008DF7F3F9FF
2AECD702281AF7030FFEFF74F91A031E
E8FD0E15FB0000FFF8EF000617F00A34
FAFE100CFFFFFA01FFF4FFFFFE060309
2002DCE80F042DFB062300F9F4FA05BF
F60311ECFAF8DA0A03F1FFFFFE0EF6FB
16FA37F5EFF900090CF0FFFD1A000050
FCFC3D00F1F2FD0410ECFF0131F20379
EB10DD3F1FEBD315EC02FF0E02061992
4203CF171F010FFD183600E2D71CDF80
0FFA0FFF0301FDF60000FFFB000B010A
1EFA09EDEB0506FB090400060204F627
FEF913FE0C00FE00090AFFF8F314FCF7
E005E9150EFAFE04000D000F0DDC06D9
