; ******************************************************************
; ********************** Network Parameter ROM *********************
; ******************************************************************
; 
memory_initialization_radix=16;
memory_initialization_vector=
FFFFEA02FB00160E1009E5E60CFD0B28,
FF000F01FD0DFFEAF0F42209EB06F801,
FE07FCFFFB01E5FCF5010309F50BF4DF,
030007F6FF0AF7F0F4F9060CFA07FEFA,
00032909E72FEAC127061A10E61D106A,
13FDF7F7FCC92A2823F2EFFC23F14C68,
020BF20A0EF6DB0ACEFA07ED00FB0FB0,
090CFC070FF6C700D40EF6F7F6FAF8AA,
0703FE0309FA0705EFEFF90801F50405,
F6FAE026F7F3E506191705F80515E735,
080206ECF9FA07FEFCF9010105FC11EF,
FBF9FFF907070009F9F903F40DFB1FDC,
E913F2E8054EE1DB33E6A51F080AE9F1,
02171C0BF0EA03F3C3F65AE71A0503FD,
F2F1D212FE091E0C202692CA4D021008,
FD071001ED0BFEEBC1EA60EDEF13F900,
1158186A0407D31530A6368049F84CEA,
2919ECEE76C4990A3F7FE44A85D8FDF2,
15E66E96867F4CA72EBD46E7D85280D3,
1BA8F52008864B6815F8E86411EAF1E2,
5AF6FBEF18E0F60FC813F10503F201F9,
8B16EB16013104032EF900320CFC4BE4,
41E9E71526FBFD16B1E6F328EFE5150B,
C0F4C7AFE8E322F0286202E21323C706,
FB04FD0DFD00FF0AEF01FDF605FE0403,
05FFFC0407F8F906F00504FC03F70503,
F000EDFCF1230EF226D2E016F910F7EF,
08F7090BFCE7FB08F00C1EF60EFE0203,
FFEE0BFCF0040CF9C4F80914FE09E102,
03E50A00F3FB080CBCFBF8FD0901EF06,
01F90219F0E7E40F25EA1EDC28031615,
1FF1F3BF04010EF0312AF0F9CD0B13F8,
06FEFEF801FDFFF5F20CFFF7FEFD0502,
0DFCF7F1030609F6F4FF03FB03FEF2FF,
25F602F7FCEA02FDEA15F5EDF901F0FD,
D2F9F808FA1AEA0516F40625F900EA06,
0BEFEBD905FC05FEFB0500FC08120CFF,
06050E02F9FB00E9000DFF0200FFF0F9,
00110D060FFBFB00FC0B00FCF0FFFF04,
10090EFDF5FDFBF6000AFF01FCF8F4FC,
E4C5DA0AFA94F0ECFF2100021906F0FD,
11BDDAB51CCB0EFA090800E509DDFBFD,
025432E5FF5305F8F022000CE40A0DFC,
FA412E060A2BFCF2FF1C00F5E110F805,
FF000FFF0A0CFEFBF9F900CDF8EC0CFD,
DBEEE71A06C1FFF40916003E0F0CFE05,
03FD05FE0506F702FDF800FAF9F90604,
0A1005D6F32405080701FF04F9F4FBFE,
0C08CEDC111440E7FD1EFF01E9E207FD,
04023A06EDF2C7F6ECF90008F810FEF2,
CEF6D73EF8042521FECDFF0A26062B0E,
01063B17F5FFE501F0FFFF04F7150708,
AA27D5B7CE12AAE69FF6FF07CD513F0D,
DB24C695291F2DC3152700C4C6F19818,
7CDDD6519420B41D02D800E9284C1527,
F8EBE2722AFC3033519D00D05086D708,
180235EFF5FF13FC1103FFCAFDFEE7F6,
EC08D6DD2220F4FAF5F4FF3AE9B30FF5,
F50C4806F4F0190E15EF008DF7F3F9FF,
2AECD702281AF7030FFEFF74F91A031E,
E8FD0E15FB0000FFF8EF000617F00A34,
FAFE100CFFFFFA01FFF4FFFFFE060309,
2002DCE80F042DFB062300F9F4FA05BF,
F60311ECFAF8DA0A03F1FFFFFE0EF6FB,
16FA37F5EFF900090CF0FFFD1A000050,
FCFC3D00F1F2FD0410ECFF0131F20379,
EB10DD3F1FEBD315EC02FF0E02061992,
4203CF171F010FFD183600E2D71CDF80,
0FFA0FFF0301FDF60000FFFB000B010A,
1EFA09EDEB0506FB090400060204F627,
FEF913FE0C00FE00090AFFF8F314FCF7,
E005E9150EFAFE04000D000F0DDC06D9;
