memory_initialization_radix=16;
memory_initialization_vector=
fffffffefcff14f1fb02f9fb05feff0800000209fffb02fefeff00fd007f0000,
00fffffbfa00effcfdfd00f707fc0008fdf10101fffbff0108ff000dff80ffff,
ff00ff06d100b280effde8f701fd152afeff140b00e7ea05fc00001fff3a0000,
0000fffb010028fff7faffe61cfb001206fcf90d00faf301faffffff007f00ff,
fc18fb06fe0406f508fdfde0020400017ffd011a0003000003fff6fdfcf4fefe,
1ee809fafdc829f8f406303b16de34de80c7bbfdf64137e24b5de81ddde10d2a,
fe1a0406d3f62cfef50354e01715fb8057f5e709ece8f9fd10110a0109fe00e8,
180fee0cf3a60dfcec0c0f07f80201057f133e100af553e31ec0e306fb03fef0,
dde4cd080eb8ae29041a000e0e2bda29bbb913c7240d20e9e622e90d2b302e80,
f603f19e0beb80140e191a0706fa0cf71df12af5dfef13ec4507fdfc25f90d21,
23fcd0f4dbda15ddfa080b10f6f1e928e40bdc50f280c2031b02ede70201ff34,
e6f1da15fcfc03d3f2f2b8d0e3f5fc36080bfba3cc2e09172415eaeef4aa8030,
1118dffef7bb0ee30b0d46e3ceddfcee80ee22eb37e71affec1bef0ce9fec200,
f19e1db23adc2b12712fb2ae03e86508ede9cc058001e7adc7270274fc32c843,
fa0cdffff804ecfff3fd178003e4e9f6130a12fc33f6f316f507f50b00f20df1,
023ad944df18d6e5f8297f0cf7bbd5f6030b1cfff7e64de8f5f8f5e3fce2e5ec;