01011010111001100000011101001111001010011111111100000010111101111111101011111110000000100000011000101000111110101111101100001110
01100110110100000000111011111110000110011111101011111110111011100000011100000000000000000000000100000010111111111111110011111011
00110001111001110000100000011001000110011111111111111111111101011111011111111101000000010000010111111010111110010000010100010011
00011100110110101111100100101010001010111111111111100001111100010010000100000001111101011111011001000111000011101000000010111010
11001011100000000010101001010111011100101111110111110101100010110111111111111101111101010000000000010001111110001101110101100011
01101001110000010001001001001011111110101111110000000000000000010000111111111111111111100000001011011001111111101111110100010110
00111101111000011111100100101100111001111111101100000000000011011101100011111110000000010000011000001111111110101111110000011011
10100000110000010010000000100111100000001111101000000111010010111001000000000010000001110100110100010100000001001111110111101010
00011011110101100000101000000101111101101111111100000001000001001110011011111010000000110000111011110111000000011111110000010111
11110111000001111111101000000000111111010000010111110100000001001110111000110111110111111111111011110010001101000000000000000111
00001010011111110001111111111011111101010010001000011100111100111110101000001100000101001111010100000000111011100000010111101110
11111101000110110000001111111011111111100001110000000111111110100000010011111100001000001111111000001001001001111111110011111100
00000100000001010000011000001100000010010000011011110001111111001010001100101010100111100000001111000000000111111011111000000000
00100110001000011111100001000101110110011100011010000000000111101000000000001000010100110000100101110111000101000111111011010111
00001001000000001110100100010110111110000001000011101011111101011100110100000010010011101111100100100001110101001000000000101000
00001100111110110000000000000101000001100000001000010010110110000000001000010000111000011110000011111111000011001110000111100110
00000001000110011111100000000011000110100000000100101000100101110000100011111100000000101110110000010010000010000001111100000000
00000001111101011111011000000100000001010000001100011101110011001111101000000010000111000000011000001110111000011111101011110111
11110010111011110001010011100010000010100000101111011110000111011111000100000001000110001101110111111011111110111111101000010010
11111010111100110000010100000111111110000010010111010010100100110000001011110110111110100100101111111100111111010000100111100011
11111001000000001111101111111111000011111110001000011010000000001111001111100110001000110000111111110011000000100000000100010010
11110101111110000010001111111101001011101111110010000000010101100000001111101000100011000101010011111111111010101110100000110010
00001001111000001101110001111111011000000001101110100010111111111000000000111101110011001010010011011111110111101111010110110111
11101010000011110000101111110101000010000100000011001101111000011101101111111100110010100000011111011100111101010000011011111111
11111000000001010000101011111011000101010100001000001100101011001110000011111110111010110010000011110100111100000000101111110001
11110010000001111111010000011001010101100011110010110001111011101010010001001111001101001001111100100000100000001110100100110011
11111101111110000000000000000111001001110000011111110111111110111111010100000000000100111111101011111000110110010000100000001110
11010011000010100000001011110011001010010001010111110100111100100100111111110111111011110001010100010001111100001111110000000010
11111101000010000000101111111000000011000000001111010001001011000011101000000011110111100010011100010100111010000000001100011011
11110000000000110000000111111111011111111110100111011001000010101100111100011101111110001111000000101011111010000000000100010100
00010100000100010001010111100110111001100001111000010110110110110100101011110010111010010000111000001001111011101111111000001001
01111111000100110010101011010000110100011110001100010011011100111111111011100110101110111011010110000000111000101100100111010100
00001001000000100000101011111010010101011101110011011000000010111111000100011101001001010000100000011110110100001110100000001101
10111101000001100000011011111101100101000010001000010011111000011011000100000001111110110000010000011101111110010000100011111111
11110101000001000001001111110011100101010001011100101011111100101101101100100011001001001110001011010001111100101111110100000001
11100011000000110000010000000100111100010000001100000010000011011000000000101001000100101110011100101010111010101111111100001010
