10000000111011011110100001000000
11010100100000000101000111111111
10000000110010111101011100111010
10000000001010011111100100000010
10000000100101010001111000010101
10000000000010110010000110110001
00000011111100000000000101111111
01111111110000010010101110101111
00001101100000001000001000110110
01011001110110100000101110000000
10000000001001110110111001010001
10111111001101101000000000001111
01111111100101011011010011111101
11100000111111100001010001111111
11110100111001010000011010000000
10000000101011000100010100001110
11100001011111110111100011001000
11110100100000000110101000010110
10100111010101110110000110000000
10000000010111000101101100001111
01111111111111110011100100010111
00001110100000001001010100111100
10000000111011110001111100010111
10111001011111111000110011011000
11100010011111111001111011100110
10000000001111111111101111011000
01101010010000110000100001111111
10000000110111011011111100011101
10101110011111111001001011011010
10000000010000001111000000001001
10000000000000001111110111111010
10000000000100001111001111111110
00001000001110000101101010000000
00010111000010010100011110000000
10011111011100100111111111101001
10110011100000001110100011010101
11010101100110001101011001111111
00101010110011001000000010100000
11001100000011111111101101111111
11110111001000110111111111010011
11101000111101111011110001111111
10111010001000110111111101111101
10000000111000111110101100100011
01001111110100101000010110000000
01111111001001110000110011100011
11101111100000000000110111011110
00001000001011000111111111101011
11101011011111110100010110110010
11100110101110100000000001111111
01010000011001001100000010000000
00111111100100000111111100001001
00100000111111001000000010111101
00110000100000001100000000011100
00101011011111110000011101000000
11011000001001111000000000111100
11100011111011100111111110000110
10000000001101101110110000011010
10111111011111111111101100101001
11100110000110111000000011011101
01000011100000000011001011100001
00001000001000001001001101111111
10100011011111110000011100111100
01001000011111111000111110101101
11110011100000001110100110110111
10110011100000001001011011000111
01111111010000100010101000111100
10111000100001111000000011101001
10000001100000001100011100110011
11110010100111000111111110100011
01111111000111111110001001100011
10001011000100100111111101100110
00110110001010101111000010000000
10000000010110001111111001011111
10100111010100111000000011001010
00100110111100100111111111111111
10000000001000000001110100100000
00000100001111110000110001111111
10110000100000000001110011010110
11010100110101010111111101111111
01111111001100011101101011100011
00101010111011011000000010011101
11101101000100110111111101101010
00001101110100111111110110000000
01000100001101000100111010000000
01001011001111101000000010101111
10000101011111110011001100010111
11110010010111111111110101111111
10000000001001000010100100011000
01100010000110000111111100111100
11010111111110111101010001111111
00001001010001011000000011111000
00101010110111110000111001111111
00110000010101100100101110000000
00010001011111110001010011111111
01111111000001011011100110010111
01010110111111110111111111110100
01111111101100100000101100100000
01111111000010001111110000000011
11101100100001001000000010000100
00110101100000001110010111101000
10000000100101011110100011010011
01111111011100001101010111000100
01111111111111010000001111001000
01010010010111010111111100111100
01111111011000110000010000000110
11111110101000100101011101111111
01111111100110110011101110100110
01111111110101111111001011001000
00000111000111111011001010000000
00001001101011001110011101111111
01010101010110101000110101111111
00111100000111111110011001111111
01000110111111101000000000010010
00000011000111101111110110000000
11000001010001101010010110000000
00101101111011101000000000001100
11000101111100111111011001111111
00000000100000000101111000110110
01111111100000111111111001011111
00001001010000100111111101010101
01111111110101111101010000010110
01110111110000011111011010000000
01110101011111110001100100101001
01111111111110001100101000100101
10110111000101110000011110000000
11100110100000001001001010101111
00000001011111110000011001000001
11111010011111111010110010010010
